11111111111111111111111111111111111111111111111
10100000100000000000100000000000000000100000101
10101110101111101110111111111111111010111010101
10101010101000101010100000000000001010000010001
10101010101010101010101110111111101011111111101
10000010101010101000100010100010000010000000001
11111110101110101011111011101011111111111110111
10000010001000101000001010001000000000000010101
10111011101011101111101010111111111111111010101
10001000100010001000101000100010001000000010001
10101110111010111110101011101011101011111111101
10101010100010100000101010001000001010000000001
10101010111110101111101011101110111010111111111
10101000000000101000101010001010100010001000001
10101111111111101010101010111010101111101011101
10100010001000100010001010001000101000101010001
11111010101010101111111011101110101011101010101
10000010101010101000001000100010101000001010101
10101110101010101011101110111011101011111110101
10101000101010001000100010100010001000100000101
10111011101110111111111010101110111110101111101
10001000100010000000001000001000100010001000101
11101110111011111111101111111011101011111010101
10000010101000100000000000001010101000100010101
10101110101110111111111111101010101011101011101
10101000100010001000100000101010101010001000001
10111011101011101010101110101010101010111111111
10000010001000101010100010100010001000100000001
10111110111110101010111010111110111111111111101
10000000100010100010100010100000100000000000101
11111111101010111110101110101111101011111110101
10001000101000100000101010101010001010000010001
10101110101111101111101010101010101110111010111
10100000101010001000100010101000101000101010101
10111011101010111010111110101011101011101011101
10001010001010100010000010101010001010001000101
10101110111010101111111010101110101011101110101
10100010001010001000001010001000101000100010101
10111011101011111011101011101011111110101110101
10100010101000000010001000100010000000100010001
11101010101111101110111110111110111111101011111
10001000100000101000100000100000100010001000001
10111110111110101011101111101111111010111111101
10100010100010101000101000100000001000100010001
10101011101010101110101010111111101111101010101
10001000001000001000100010000000000000001000101
11111111111111111111111111111111111111111111111
