111111111111111111111111111111111111111111111
100000000000000000000000000000000000000000001
101111101110111010101010111010101010101110101
100000101000001010101010001010101010101000101
111011111110101110101111101011111010111110111
100000001000100010101000001010000010100000001
101010111111111010111010111011111011101110111
101010000000001010001010100010000010001000001
101110111011101010101011111111111110111110111
101000001000101010101000001000000000000010001
111011101011111011101111111110111111101011101
100000101010000000100000000010100000001010001
101110101110111110111010101110101110101010101
100010100010100000001010100010100010101010101
101111101111101010101011111011111011111010101
101000000000101010101000100000001010000010101
111011111110101010101010101011111110111011101
100000001000101010101010101010000000001010001
101011111011111011111111101010111111101011111
101000100010000010000000001010100000001000001
101011111010111010111011111111101110101110101
101000001010001010001000100000000010100010101
101111101011101110101110111011111111111110111
100010001010001000101000001000000000100000001
111011101010101111111110101011111011111010101
100010001010101000000000101000001000100010101
101110101110111010101111111110111010111011101
100010101000001010101000000000001010100000101
111111111110111111111110111010101110111011101
100000000000000000100000001010101000100000101
111011101110111011111011111011111010101111101
100000101000100000001000100000100010101000001
111110111011111011111111101010101011101010111
100000001010000000000010001010101000101010001
111010101111111111101111101011101010111010101
100010100010000000000010001010001010100010101
101010101110111111101111111110111111111010101
101010101000000010000010000000000000001010101
101011101011101110101011101010111111101011101
101000101000100010101000101010000000101000101
101111101010101110101011101011101010101010101
100000101010100010101000101000101010101010101
101011111111111111101111111011101111101110101
101000000010000000000000100010000010000010101
111111111111111111111111111111111111111111111
