111111111111111111111111111111111111111
100000000000100010100000100010001000001
101111101110111010101110101010101011101
101010001000000010001010001010100010101
101010111011101111101011111010111110101
101000001000101000101010000010001000001
101111101110101010101010101111111011111
100010101000100010101000100000001010001
111010101011111110101111111111101010101
100000101010000010001000001000001010101
101110101110111011111011101011101010111
101000100000001000100010101000101000001
101011111111111110101110101110101111101
101000100000100010001000100010101000001
111110111110101011111010111010101011111
100010000000101000001010000010101010001
101011111011101111101011111110101010101
101010001010001000101000100010100010101
101010101110111010101110101110111110111
101000100010001010100000100000101000001
101111101010111010111111111111101011101
101000101010100010000000000010000000101
101010111010101011111111111011111110101
100010100010001000000010001010000010101
111110101111111111111010111010111010101
100010101000000000001010100010001000101
101110101111111111101010101111111111101
101000100000000010001010100010000000101
101011101011111110101010101010111110101
100000101000000000101000101000100010101
111110111111111111111110101111101010101
100000000010100000000010100000001010001
101011111010101111111010101111111111101
101010001010001000101010100010000000101
101011101010111010101010101011111010111
101010001000100010001000101000000010001
101010111111101111111111111111111111101
101000100000000000000000000000000000001
111111111111111111111111111111111111111
