111111111111111111111111111111111111111
100000000000000000000000000000000000001
111010101110111010101111101011111110101
100010100010100010101000001010000000101
101111101111101110111010101011101111101
100000101000000010100010101010000010001
101111111110111111111110101110111111101
100000000010100000000000101000000000101
111110101110111010101011111110111110111
100000101000100010101000100000001000001
101110111110101111111011101111111010101
100010100000100000100000100010000010101
101010101111101011111011111011101011101
101010101000001000100000100000101010001
111010101111111110111011101010101011111
100010100000001000001000101010101000001
111110111011101110101011101011111110101
100000001000101000101010001000100000101
101010101111111011101011101010101110101
101010100000001010001010001010101000101
111010111011111010101010101110111111101
100010100010000010101010101000001000001
101110111010111111111010101111101111101
101000100010100000000010100000100000101
101011101010101110101011111110111110101
101000101010100010101010000000000010101
111010111111101011101011111111111010101
100010000010001000101000000000001010101
101111101011101110111111111011111011101
101000001010000010100000000000001010001
111111111011111011111010111110101110101
100000000010000010000010001000100010101
101110111111111111101111111110101110111
101000000010000000000000100000100010001
111010101010111111101111101011101010101
100010101010100000001000001000101010101
101110101111101011101010111011111110101
100010101000001010001010001010000000101
111111111111111111111111111111111111111
