1111111111111111111111111111111111111111111
1000001000000010000000000000001000001000101
1011101111111010111111111111101011101010101
1010000000001010100000100010001000100010001
1011111111101010101110111010111010111111101
1000100000101010100010000010001010100010001
1110101110101010101011111011101010101110111
1000100010001000101010001000100010100000101
1010111111111011101010101110111110101111101
1010001000101010001010101000001000100000001
1111101010101010111010111011111011111111111
1000001010001000100010001000100010001000001
1011111011101111111111101110101110101011101
1000100010100000000000101000100010100010001
1010101110111111101110101011101010111111101
1010000010001000100010100010001010100000001
1011111110111010101110111111111010111111101
1010001000100010101000100000000010100000101
1011101011101110111011111110111110101110101
1000000010001000001010000000000010000010101
1011111110101111101011111111111011111110101
1010000000101000101000001000100010000000101
1110101111111010111010111011101111101111101
1000100010001010001010000000101000001010001
1011101110101111101010111110101011111010111
1000101000100000100010001010001010001000101
1010111011111011101111101011111010101011101
1010000010001000101000101000101000101000101
1011111111101010101110101110101111101110101
1000100000001010100010100010001000001000101
1010101111111110101010111011101011111011101
1010100000001000101010001000101010000010001
1011111110101011111011101110101010111110111
1010000010101000100010000010101010100000001
1010111010111010101110111110101010101111101
1010001010100010100000001000100010100000101
1011111010101110101111111011111010111110101
1000100010001010000000001010000010000010101
1110101111111011111111101010111111111010111
1000100000001010001000101000100010001010001
1011111010101010111010101011111010101010101
1000000010100010000010001000000010100000101
1111111111111111111111111111111111111111111
