1111111111111111111111111111111111111111111
1010001000001000000010100000100000000010101
1010111010101010101010101011101110101110101
1000000010100010101000001000000010100000001
1111111111111111111111111111101111111111111
1000101000100000100010001010101000101000001
1010101011111110101110101010101010101010101
1010101000001010100000100000100010101010101
1010101011101010101011101110101111101011101
1010100000100000101010000010100000000010001
1010101110111111101111111111101110111011111
1010001000100010101010100000101000100000001
1010101010101010101010101111111111111111101
1010101010001000100000001000100010101000001
1111111111101111111011101010101010101111101
1000000000100000100010100010101000001010001
1110111011111011111010111011101111111010101
1010101000100000100000100000100000001000101
1010101010101010111011111111111110101110111
1000101010001010100010001000100000101000001
1110101011101111101110101110101010101111101
1000001000100000000000100000101010101000001
1011111111111111111111111111101011101011101
1000000000001010101000001000101000100000101
1110111111101010101010111110111011111111111
1000001000001000000010001000101000000010001
1110111011101011101110111011101011101011101
1000001000101000101010001000101010001000001
1011101111101111101010111110101111101111101
1010001000101000001000001000101000001000001
1111101010101110111010111110101110111011111
1000001010001000001010000000101000101000001
1111111011111111101111111110101110101110101
1000100010001000000000001010101010001000101
1110111011101011111111101010101010101110101
1000100010001010000010001000100000101000101
1011111010111010111111101011101111111111111
1000100000000010000010001000101010000010001
1010101110111010101010111011101010111010111
1010000010101000101010001000101000100000001
1011111110101110111111101011101010111110111
1000000010001000000010001000000010000010001
1111111111111111111111111111111111111111111
