1111111111111111111111111111111111111111111
1000000000000000000000000000000000000000001
1111111111111111111111111110111111111111111
1000000000000000101010101000000010001000001
1010101110101010101010101010111010101011111
1010100010101010000000000010001000100000001
1111111111111111101111111111111111111010101
1000101010001000101000100010100000001010101
1110101010101010101011101010101110101011111
1000000010100010101000101010101000101000001
1111101110111110101110101110111110101011101
1000100010101010101000000010000000101000101
1010101110101010101110111110111011111011111
1010000010100000000010001000101010101000001
1010101111111110111011101010101010101011111
1010100000000000001000000010100000001000001
1111111111111111111111101111111111111111101
1000001010000010000010001010101010101010101
1111101010111111101110101010101010101010101
1000001000100010001010100010000000001000001
1110111010111010101011101111111111101011101
1010100010000010100010101010000000101010001
1010101010111010111110101011111010101110111
1000001010100000000000000010100010001010001
1111111111111111101111101010101010111010111
1000000000101010101010001000001010001000001
1111111110101010101011111011111010111011111
1000000000101000100010100010000010001010001
1111111110101011111010111010111111111010111
1010000000100000000010000010000000001000001
1011101110101111111111111111101111111011101
1000001000101010101010000000100010001010001
1110111011101010101011101010101010101110111
1000001000100010101010001010001000101010001
1110111010111010101010111011101111101010101
1000001010000000000010001000100000101000101
1111111111111110111111111011111111111011101
1000000010000010001010001000100010001000101
1011101010101011101010101010111010111110111
1010001000101000000010100010100010001000101
1111111111101111111110111010111010111110101
1000000000000000000010100010000000001000001
1111111111111111111111111111111111111111111
