1111111111111111111111111111111111111
1000000000100010000010000010101010001
1111111110101011101010101110101010111
1010100000001000101000100000000000001
1010111111101111111011111110111010101
1000100010000010001010000010001010101
1110101111101110101011111010101111101
1000100010000010100000000010100010101
1110101111101111101111101111111010111
1000000010101010100010000000100000001
1010101110101010101111111010111110111
1010100000000000000000001010001000101
1111111110111010111111101111111111101
1010001010001010101000100000100000101
1011101010101110101011111011111011101
1010000000101000100000001010101000001
1011111010111111101011111110101011101
1010001010001000101010100000000000101
1010111011111110101110111110111011101
1000000010001000100000100000001000101
1111101110111110101010101111101010101
1000100000000010001010100000101010101
1010101111111110111111101011111010101
1010000000101010101000001000101010101
1110101011101010101010101111101111111
1000101000100010000010100000001000001
1111111011101010111011111011111011101
1000000010101010100010001000100010101
1111111010101110111110101110101110111
1000001000000000000000100010100010101
1011111011111011101111101011101110101
1010101010100010100000101010000000001
1010101010111110101011111111101110101
1000000000000000101000101000000010101
1110101110111010101011101010101111111
1000100010001010101000000010100000001
1111111111111111111111111111111111111
