1111111111111111111111111111111111111
1000100000000010101000001000101000001
1011111110111110101110111011101110111
1010001000001000000000100010100010101
1011101110111110111110111010111010101
1000000010000000000010001010000010001
1111101110111110101111101010101011101
1000000000001000100000100000101000001
1110111011111111111111101011101110111
1000100000000000001000001010001000101
1011111110101110111110101111101010101
1010100000100010000010100000101010001
1010101110111110101010101110111110111
1000100010101010101010101000001000001
1010111110101011111111101110101011101
1010100000000000101010101010101000101
1011111010101111101010111011101011111
1010001010101010101010001000101000101
1010111111101010101010111011111110101
1000100000000000000000000000000010001
1011111010111010101010111111111010101
1000100010100010101010000000100010101
1011111110111011101111111010111111101
1010000000001000100000100010101010101
1011101110111111101111101011101010101
1000101000001000001000101010000000101
1011111110101111101011111111101010111
1000100000100000100000000000001010101
1011111010101110111010101110101111101
1010000010100010100010101000100000001
1111101011111111111011101110111010101
1000001000001000000010001000001010101
1110101011111010111011101111111010101
1000101000100010100010000000100010101
1011101010111010101110101011111011101
1000101010100010101000101000001010001
1111111111111111111111111111111111111
