1111111111111111111111111111111111111
1000000000000000000000000000000000001
1010111110101110101110111010111011111
1010001000100010100010001010100000001
1011101110101111101011101110111111101
1010001000100010001010001000000000101
1110111010101011101010101111101110101
1000001010101000101010100000101000101
1010101111111010101110101011111010101
1010100000001010100010101000001010101
1010111011111011101010101011101111101
1010100000001000101010101000100010001
1010101110101110111110111110101010101
1010100010101000100000001000101010101
1010111110111111101010101111111111101
1010100000000000101010101000000000001
1010111111101010101110111111101110111
1010001000001010101000100000000010001
1110111010111111111111111110101011101
1000001010000000000000001000101000101
1111111011111111101111101111101011101
1000000010000000001000001000001010001
1011111010111111101111111010101111101
1000001010000010000010000010100000101
1011101110101111111010101010101010111
1000101000101000000010101010101010001
1011101011111111111011101110111011101
1010001010000000000000100010001010001
1011111011101011111110101010101010101
1010000010001000000010101010101010101
1110111110111010101111101011101110101
1000001000001010100010001000100010101
1010101010101110111010111011101011101
1010101010101000001010001000101000101
1110111111111011111010111111111110111
1000000010000010000010001000000000001
1111111111111111111111111111111111111
