1111111111111111111111111111111111111
1010100000001000001010100000000010001
1010101111101111101010111010101111101
1000000010000000100000001010101000101
1110101011111011101011101010111010101
1010101010101000001010101010000010001
1010111110101011111010111111101111101
1000001010000010001000100000000000101
1111111011111010111110111111111010111
1000000000000000001000101000000010001
1111101111101111101111101111111010111
1000000000100000100010101000101010001
1011111110111010111010101010101010101
1000100000100010001010101010000010101
1110111011111111101110101010101111101
1000100010101010001000101010100010001
1111111010101010111110101110101011101
1000001010101000000000100010101010101
1010101010101111101111101110111110101
1010100010100000000000000000001000001
1111101010111110111110111110111011111
1000001010001000001000101000100000001
1011111011101011111110101110101010111
1010000000100010100000100000101010001
1111111010111110111010111111101110111
1000100010100010100010100000101010101
1110101110111010111011111011111011101
1010100010100010101000000000100000001
1010101110111010101111111110111110101
1000001000001010000000000000101000101
1110111110111011111011111111101110101
1000101000001000000000001010001000101
1111101110101110111010101010101110111
1000000000101000100010100010100000001
1011111010111011111110101010111110111
1010000010001000001000101000001000001
1111111111111111111111111111111111111
