1111111111111111111111111111111111111
1000001010101010000000100000101010101
1110111010101011111110101011101010101
1000000010001000000000001010101010001
1011101110101110111110111110101011101
1010100000101010100010100010001000001
1110101110111010101111111011101011101
1000100010001000000000000010000010101
1110111110101110101111111110111110111
1010000000100010100000000010001010101
1010111111101111111010101111101010101
1000101010001010000010100000001000001
1011101011111010111110111011101011111
1000100000101000100000101010001000101
1011101111101111111111101110111010101
1000001010101000000000101000000010001
1011111010101011111011101111101111101
1000100000100010000000000000001010101
1110101010111011111111101110101010101
1010001010100010001010001000100010001
1010111111101010111011111110111111111
1000001010001000100010100000000000101
1110101011101110101010111110111010101
1010100000100010101010000000001010001
1010111010101111101111101110111111101
1000100010001000001000000010101000101
1110101011101010101111111110101011101
1010101000100010100010001000001000101
1010111011101110111110111110111010111
1000001010000010001000000000101010001
1010111111101110111110111011101110111
1010001000101000000010001000000000001
1110111110111110101111101111101010111
1010101010100000100010001010001010001
1011101010111010111010101010101111101
1000000000000010100010101000100010001
1111111111111111111111111111111111111
