111111111111111111111111111111111111111111111111111
100000001000000010000000100000001010000000001000001
101111111010111011111011101111101010111011101110111
100000000010001000100000100010001000100010100010001
111110111110111110101110111010111111101110111011101
100010100010000010100010100010000000100010001000001
101010101011111010111110101111111110111010101110111
101010101010001010001000101000001000100010100010101
101011101010101011101011101011101011101111111010101
101000001000100010001000001000101000101000001000101
101110111111111110111111111110101110101010101110101
100010000010000010100000001000100010001010100010101
111011111010111010101011101011111011101110111010101
100010000010001010001010001000100010001000100010101
101111111111101011111010111110111110111011111010101
100000100000101000001010100010000010100010100010101
111110101110101111111011101011101110111010101111101
100000101000100000000010001000001000001010100010001
101110101111111110111110111011111011101010111010101
101000100010000010001000101010000010101010000010101
101110111010111011101011101010111110101011101110101
100010000010001000001000001000101000100000101000101
111011111111101111111111101111101010101110111011111
101010001000100000100000101000100010101010000010001
101011101010101110101110101110111110101010111110101
101000100010101010101000101000001000100010100000101
101110111010101010111011101011101010111011101111101
100010001010001000100000000010001010101000000000101
111011101111101110101111111110111010101111111111101
100000101000100010100000000010001010101000100000101
101110101010111010111111111111101010101010101110101
101000100010100010000000000010001010001010001010101
101111111110111111111111111010111110101011101010101
100010001000100000001000001000000000101000100010001
101010101010101111101011111111111111111110111111111
101000100010001000001010000000100000100010001000001
101111111111111011111010111011101010101011101010111
100010001000001000100000100010001010001010001010001
111010111011111010101111101110111111111010101111101
100010001000001010101000000010000010001010101000001
101111101110101110101111111111111010101010101011101
101000001010100010101000000000001010100010100010101
101011111010111010101011111010101110111110111110101
101010000010100010100010000010100010101000100000101
101010111110101010111111111111101010101011101111101
101010000000101010001000100010001010100010100000101
101010111110101011101010101010111010111110111110101
100010100010101000100010001010001000100000000000101
111010111010111110101111111011101111101111111011101
100010000010000010000000001000001000000000001000001
111111111111111111111111111111111111111111111111111
