111111111111111111111111111111111111111111111111111
100000101010000000100010100010000000000000100010001
111110101011101110101110101110101110111111101111101
100000000000000010000000101010101010101010000010001
111111101011101110111111101010111011101011111011101
100010001000100010000000000000000010001010000010101
111010111111101110101111111010111110111011111010101
100000000010000010101000001010001010000000101000001
111010111011101110111110111011111010111111101011101
100010001010001000000000101000101010101010100000101
111010101111101111101111101111101010101010111011101
100010100000100010000010001000100010100000000010001
111011111011101110101010111011111010111010111111111
100000001000100010101000001010001010000010001000001
111011111111111110111011111011101010111110101011101
100000000000001010001000000000000000000010101000101
101010101110111011111010101111111111101111111010111
101010101000000000001010100000000010100000000010001
111110111111111011101110111010111010111010111111101
100000001000001000101010101010101000101010000010001
111011101011111111111010101110101110101110101011101
100000100000001000100010100000001010001010101010001
111010101010101011101111111110101010111011101111111
100010101010100000001000101000101010000010001000001
101011111111101110111010101010111011111011101110111
101000000010000010000010100010000000101000100000001
101010111111101111101011101111101110101110101111101
101010100010000000101010000010000010000010100010101
101110101110101011111111101111101111101111111110111
101000001000101000000000101000000000100000000000001
111011101111111110111011101110101010111010101110101
100000100000001000100010000010101010001010100010101
101110111010101110111011111111111011111011111011111
101000001010100010001000100000000000001010001000001
101111101110111110111010111111101110111010111111101
101010101000001000001010000010101000001000000000101
101010101110101110111011101110101011101110111011111
101000001010101010100010000000101000100010100010001
101011101011111010111111111110111110111110111110111
101010000000100000000000000010100010001000000000101
101110111010111010111010111110101111101010111011101
100010100010100010001010101010000010001010100000001
101110111011101110111011101010111111101010111111111
101010100000101000101010000000000000101010000000001
111010111011111110101011101110111111111010111010101
100000100000001010001010000010000000100010100010101
111010101010101010111110111110111010111010111011101
100010101010101000001000000010001010001010001010001
111010101011101110101110101111101110101111101111101
100010101010000010100010100010000010101000000000101
111111111111111111111111111111111111111111111111111
