111111111111111111111111111111111111111111111111111
100000000000001000000010001010000000000000100000001
111011111110101111101110111010101011101011111110111
100000100010100010100010001000101000101000100000001
111011111011101110101011101111101111111011101110101
101010101010000000101000000010001000100000101010101
101110101011111110111110111111101110111111101011111
100000100000000000000000000000100010100010000010001
101011111110101111111110111011101110101110101111101
101000100000101000001000101000000010001010100010101
101110111111111111101111101011101110101011101110101
101000001010001000000000100010100000101000100000101
101110101011101111101010101110101010111011101110101
101010101010000000001010000010001010000000001010101
111011101011101011101111101110101010111110101011101
100000001000001010101000100010101010001010100000101
101110101111111110111110101110111110111011101010101
101010101000000000001010000010001010000000101010001
101011101110111010111010111011111010101010111010111
101000000000101010000000001010000000101010001010001
101110101111101110101010111111101110111110111111111
101000101000000000101010001000101010001000001010001
111111111010111111111010111011101010111110111010111
100010000010100000001010000000101000001000000000001
111011101010101111101110111010111110111010111010101
100000001010101000000000001010101010100010001010101
111111101111101110101110111110101010111110101110101
101000001000101000101000001000100000100000101010101
101111111011111110111110111111101110101010101011111
101000100000000010000010000010000010101010100000001
101110111111111010111110101111111011111111101010101
100000100000000000001000100010100000000010001010101
101110111110111110111011101010111010101111101010111
101000000000100010100010001000100010101000001010001
111110111111101111111011101110111111101111101110101
101000101000001000000010001010000010101000000010101
101111101111101010101011111010101010111010101011101
101000000000000010101000000010101000001010101000101
101111111111111010111010101110111111111110111011111
100010001010000010100010101010000000001000100000001
101111101010101011101110101010101110111110111110111
101010000000101000100010101000100010000010001000001
101011111011111111101111101010111110111111101110111
100000000000100000000000101010101000100010000010001
111110101010111010111111111010101110101111101111111
100000101010100010000010001010001000000010000000001
111111101111111010101110111110111110101011101010111
101000001000001010100000101000001010101000101010001
101111101111101011101011101011101011111010111010101
100000001000000010001000100000100010000010001010101
111111111111111111111111111111111111111111111111111
