1111111111111111111111111111111111111111111111111
1000000000000000000000000000000000000000000000001
1110111011111111111110111010111110111111111011101
1000100000000000001000100010000010001000000000101
1011101010111010101110111111111010111011111110101
1000101010001010101000000010000010100000000010101
1010101110111110101011101010101111101111111011101
1010100010000010101000101010101000000000100010001
1010101110111110111011111010101010111011111110111
1010100010001000001010000010101010100010000000001
1111101011101111111011101111101010101111111011101
1000001010000000001000101000001010100000001010001
1011111011111010111111101111111011101011101011101
1000100000001010100000000000001010001010001010001
1010111111101111101011111111111011101111101010111
1010100000000000101000100000000010001000001010001
1110101111111011111111101010111011111111111010101
1000101000000000000010001010001000000000100010101
1010111110111010111010101010101011111110101111101
1010000010100010100010101010101000100000100000101
1111111011111110111110111110111011111011111111101
1000000010000000001000100000100010000000000000101
1010111110101011111011111011111010101011111110101
1010100000101010000010000000100010101000100000101
1010111010111011111111101110111110111111111111111
1010100010100000000000101000000010000000000000001
1011111010101011111111101011101111101111101111101
1010000010101000000010001000101000000000100010001
1010111011101111111011101111101110111011111110101
1010001010000000001000101000001000001000000010101
1110111110111111111011111011101111101111101110111
1000000010001000000000100000101000001000001000001
1010101010101110111010111011111111101011101011101
1010101010101000001010001000001000001000101010001
1010111010111010111110101111111110101110101011101
1010100010001010001000100000001000100010101000101
1110101111111111111011111111111111111010111011101
1000100000001000000000100000000000000010100000101
1010101010111110111010101111101011111011101110101
1010101010000010001010100010001000001000100010101
1010101010101111111111111010111010101010101110111
1010101010100000000000001010001010101010100010001
1011111010111111101111111010111110111011101110111
1010000010100000000000001010100000100000101000001
1011101111101111111010101111101111111011111010111
1000100010001000000010100010000000100010000010001
1011111010101011101111101011101110101010111110101
1010000010101010001000001010000010101010100000101
1111111111111111111111111111111111111111111111111
