1111111111111111111111111111111111111111111111111
1000000000001000100000001000001000000000001010001
1111111111101010101110101010111011111111101010101
1000100000100010101000100010100000101000101010101
1010101110101110101011111111101110101010101010101
1010001000101010001010000010001010001010001000101
1010111011101011111010111010111011101011111110111
1010100010001000100010100010001010001000100010001
1011101110111011101110111111101010111110101010101
1000100000100010000010000000001000100010001010101
1110111111111010111110111111101111101011111010101
1000000010001000100010000010100010101000001010101
1111101010101111101011111010111010101010101011101
1000101000100000001000100010100010101010100010001
1010101111111111111110101110101110101110111110101
1010101000001000000000001000100000100010100000101
1011101011101011111111111010111110111010101111111
1010001010001010000010001010000010100010101000001
1010111110111010111011101111111010111110101011101
1010000000001010001000101000100010100000101000101
1011111111101011101110101010101110101111101110101
1010000010001000101000100010100010100000001000101
1010111110111111101011111110111010111111101111101
1010000010000000001010001010000010001000000000001
1010111011111011111010101010111111101111111011111
1010100010000010001010100010100000001000001010001
1010101110111110101010111010101011111011101110101
1000100010001000101000101000101010001000101000101
1011111010111011101111101111101010101110101011101
1000100010000010001000001000001000101000101000101
1110101111111110101011111011111111101011101110101
1010100000100010101000100000100000100010001000101
1010111011101010111110111110101110111011111110111
1000001000001000100010100000101000101000100010001
1111101111111111101010101110101011101010101011101
1000101000000010001000100010101000101010101000001
1010101011111010111111111011101011101010101110111
1010001000100000100010000010001000101010000010101
1011111111101111111010111010111110101011111011101
1010000000101000100010001000100010001000101000001
1010111110101010101111101111101011111110101111101
1010001000101010000000101000001010000000001000101
1011111011101111111010101011111011101111111011101
1000000010001000000010001000001000001000100010001
1111111010111011111111111011101111111010101110111
1010000010001000100000001010101000001010000010101
1010101111101110101111101010101110101011111010101
1000100000001000001000001000100000101000001000001
1111111111111111111111111111111111111111111111111
